[PAD]
[UNK]
[CLS]
[SEP]
[MASK]
a
b
c
d
e
f
g
h
i
j
k
l
m
n
o
p
q
r
s
t
u
v
w
x
y
z
##a
##x
##d
##e
##u
##c
##t
##b
##l
##o
##r
##n
##h
##k
##i
##s
##v
##g
##y
##m
##w
##f
##p
##z
##j
##q
th
the
##er
##in
##en
##on
##es
##at
##or
##ou
to
##nd
##ing
##an
and
##re
##it
in
##ed
##al
##ar
of
##om
be
##le
##ent
##is
##as
##ion
##ve
##ic
you
st
##ll
that
##ot
wh
##ch
is
##ct
##se
it
##ay
##et
ha
on
##st
for
##ly
##ow
##ld
##ut
##id
##ol
re
##ir
pr
##ur
##ce
can
##ud
##ers
##am
##op
##im
they
he
##th
##ke
##ith
##ess
##ig
with
##ver
##ad
##ation
have
are
as
an
we
##ents
##ould
li
stud
##ill
go
##ter
##ome
not
con
ex
ne
##ore
do
or
al
sh
##ge
su
ch
##ant
wor
##od
de
##ul
at
fr
this
pe
##il
their
##ort
##ive
##mp
##iv
##au
peop
se
ma
com
##est
le
bec
pro
##ate
people
students
##ble
##igh
tr
was
te
##pp
##os
##ool
##ity
sch
##ff
more
##us
##ies
##ause
school
will
en
so
but
##king
your
##ac
##ect
because
if
me
imp
##ment
##un
my
from
##out
all
tim
##cc
some
cl
by
##one
ab
##end
##ial
##ist
oth
##ust
##act
##ain
us
ad
##lp
help
##art
when
##ure
time
##ie
##so
##our
them
what
##nt
gr
##ere
pl
would
##ass
like
##ight
work
##ions
get
ta
##ally
there
also
##ach
exp
##fe
##gh
one
##and
how
man
##ard
has
sp
##are
about
kn
res
our
out
##ost
##ag
its
make
who
##ough
##el
##all
di
other
##arn
##ays
##ear
ar
##ple
##eth
know
want
##ence
life
act
##ind
##em
learn
##ame
##um
##ont
sa
pers
##ide
good
##og
##age
up
##oo
ever
class
##ance
##ue
un
##ice
fa
thin
##ong
need
thing
should
fe
his
new
##reat
bet
##ine
ev
##ich
som
##ult
person
##ro
##ip
att
just
##ities
##ast
##ack
str
##ving
##oth
could
##ound
##ccess
##oc
pos
may
any
##iz
##ap
every
think
comp
diff
am
##ish
dr
##if
dec
had
many
int
##able
##ob
dont
##ous
which
cont
##lf
comm
op
##ans
##ose
##ep
fir
import
##uc
##lect
##ations
way
##ree
inc
take
year
inter
exam
part
id
##ab
dis
##ition
than
##ual
success
ag
car
no
first
##orm
better
##eri
##vel
##ile
over
##ces
someth
##ful
something
##pport
##wn
were
##ks
important
chan
been
##ress
af
##ene
##ated
br
care
high
##ting
ph
her
##qu
ind
she
most
##olog
off
im
##ount
##ign
app
##ves
teach
going
use
own
home
being
said
even
und
example
##ical
see
these
##ons
##ath
differ
acc
##oy
col
##ates
cons
add
##ib
inf
things
world
day
under
##ace
##itive
##ond
##uct
##ire
bene
##ci
##ily
tech
##ry
per
eff
benef
##ase
##ors
only
elect
techn
##cial
pre
after
adv
##ways
try
student
##ary
play
then
##ens
##iend
prov
##pl
##ber
par
always
##ieve
##ak
##ade
##ild
feel
fam
fo
##ook
bel
##ology
qu
while
ke
fail
positive
fin
friend
different
did
##ub
such
thr
##ject
##ude
great
ide
##ite
activ
##int
well
reas
into
experi
##ery
why
conc
having
##its
rel
cr
##als
##other
classes
##ential
doing
ed
lead
job
##self
hard
##fore
lot
mu
decis
tw
learning
commun
inst
##ular
technology
those
others
##own
##ible
##lic
best
through
##ever
##alth
po
pres
ext
##line
start
##eric
say
mar
colle
working
##les
em
very
now
bu
##erm
##blem
gen
much
##oup
des
problem
sm
sk
##gr
change
spe
##ert
##ia
allow
##stand
sec
rec
group
wr
co
inv
resp
ac
too
sy
really
happ
years
health
rep
##velop
right
able
##ved
##ative
##cess
##ility
him
pol
college
long
develop
does
##ating
understand
give
##ord
where
find
##ory
never
fut
##led
however
opport
##aw
opportun
##ys
ser
##pt
attit
##thing
##ick
show
count
##ove
career
educ
same
tal
future
eas
##ific
##ork
online
##ell
es
mat
family
conf
might
##ise
someone
another
back
two
friends
sc
activities
attitude
##ivid
##ang
hand
ro
##ote
effect
##hip
each
##ational
dist
ach
ear
##ng
bl
##ments
addition
##urr
rem
set
##day
ob
gu
##te
grad
state
##enc
before
around
bad
though
##uring
##av
keep
incre
without
making
reason
individ
##kes
##ider
young
concl
##ences
##ail
individual
##ours
##ward
##ident
##stem
giv
##ier
made
expl
reg
##ills
study
grow
##ased
char
believe
##ages
##ited
##ety
##usion
self
become
system
##ied
both
hum
states
contr
##ict
inform
##we
cre
support
##oss
##ower
##ra
red
experience
##urn
stay
##ures
prod
again
form
still
project
idea
ass
come
less
bus
end
pot
compan
fact
##iss
consider
last
##ones
plan
##itt
impro
##xt
used
##ull
real
art
##ether
##ious
##ually
failure
##eng
incl
pur
##work
##ocus
conclusion
disc
look
thats
##ues
##ady
comple
child
##ices
taking
potential
focus
##ft
interest
aw
let
##iew
##der
dep
emp
creat
##oral
goals
##ian
aut
det
team
during
##ning
requ
##gram
program
##sel
num
sit
##form
##gan
big
partic
down
env
sin
social
face
wee
##iting
poss
##iness
bre
ask
##oney
teachers
skills
##ather
put
provide
envir
sim
second
fun
##icult
eng
pass
##pe
environ
med
val
impress
##ution
##ledge
money
##ody
trans
##res
##ings
cho
##mm
##ten
accom
sub
##erg
old
##earch
##llow
##ublic
research
information
opt
tra
opin
##ize
##etim
##ness
el
##ics
##less
yourself
decision
##ense
lim
difficult
pop
ins
place
##pect
environment
knowledge
cars
benefits
product
parents
order
##orts
sol
result
##ater
kid
tell
everyone
fl
##ket
##con
kind
electoral
call
##vern
schools
cour
neg
sign
got
teacher
charact
cle
three
##plish
personal
fac
##ph
##ead
trying
##selves
provid
govern
iss
mind
accomplish
##cept
##hing
since
##ween
follow
av
##ention
sometim
chall
##icial
between
human
ess
##ug
##ts
americ
decisions
mean
mod
hours
##ave
successful
education
##ending
summ
lives
impact
found
##joy
##ired
point
often
enjoy
done
week
##ern
dem
fur
##rect
sur
beh
opportunity
##ination
##be
serv
##oose
cant
community
process
var
four
mo
chang
##lu
ris
using
getting
min
business
achieve
##ouse
##ared
problems
wal
##ames
pay
mem
talk
##ives
power
ref
must
build
contin
##ately
prof
advant
furth
cell
agree
country
gradu
jo
few
mot
food
##az
mon
ty
win
times
##loy
choose
aff
respons
organ
def
didnt
generic
cap
situ
character
##ivers
sometimes
improve
communic
influ
##iver
read
##ized
ways
public
law
##ional
president
stress
alre
##ources
intern
##ced
game
##ient
makes
already
number
negative
anything
happen
create
##ty
early
rest
arg
pract
top
next
##ope
##ittle
auth
bo
test
##ood
##lish
soci
here
everything
quest
little
employ
prop
strong
offer
ones
##tim
open
##uss
##ump
gener
summer
helps
##ior
##ertain
includ
##atch
##ract
company
##ream
vot
turn
days
##oun
kids
youre
benefit
gl
##ren
level
##iving
##conom
##over
relations
small
sure
live
loc
##ism
loo
sci
ideas
homework
##ake
vis
run
##gest
government
##ists
opportunities
lar
advice
##get
ens
##ne
imag
wom
mus
cult
access
reasons
enc
enough
phones
##room
econom
maj
vote
told
cor
gain
##idence
age
vide
complete
prom
certain
##uce
instead
##old
cam
##ural
major
energ
##br
sl
phys
easy
away
comes
true
united
##ix
finish
additionally
##ds
love
possible
##ently
air
##wh
break
individuals
##name
war
matter
che
nat
const
relationship
curr
market
understanding
motiv
cost
goal
##aster
phone
particip
due
appro
miss
##ner
invol
##side
mom
##ically
direct
children
polic
house
finally
##wards
mist
reach
##com
free
##ock
meet
opinion
against
energy
##ases
prev
likely
means
doesnt
once
alone
invest
cent
list
##ines
##nect
far
perform
clear
control
conv
beneficial
stop
needs
view
necess
##ital
resources
key
author
spec
case
challeng
city
thought
##up
##adem
stand
##tern
tog
themselves
sports
qual
##ency
ret
tas
move
##ilities
else
together
##ording
wrong
academ
##ental
seem
design
##ibility
classroom
development
full
##und
comput
##ization
head
popular
##pr
society
##ri
cond
bas
profess
games
cause
ent
##ield
manage
signific
sw
attend
##ute
##gress
wont
leg
##bers
##air
genericname
pat
connect
rev
##ember
bring
video
step
press
##aining
##ries
according
##uff
mult
expect
##ias
outside
actually
cur
whether
essential
experiences
report
##ruct
##rac
##ling
ident
sense
determ
prot
sever
ven
##ateg
past
commit
##fort
dream
affect
overall
main
##port
rather
##ken
happy
chance
therefore
##itical
looking
ul
##cent
##lement
wanted
##ked
##gin
##ike
prep
web
situation
##icle
allows
amount
achie
impression
encour
nothing
##ange
emot
purs
cand
##ted
significant
rece
##ants
hist
##cr
teen
##acks
##na
##ash
activity
gre
choice
wa
physical
setting
##ined
##augh
##akes
extra
maybe
dat
##fer
ultim
older
##ify
says
respect
seen
unt
belie
service
##osed
##que
including
trad
approach
##ivity
ve
post
ey
story
enth
candid
effective
interact
based
alth
express
##ably
imm
enthus
reduce
necessary
driving
club
role
playing
although
avail
remember
month
spend
easier
went
started
##ermore
course
attention
ability
today
ensure
path
furthermore
thinking
body
est
watch
##per
lo
dev
##illion
##ush
##ck
univers
##urric
several
venus
towards
given
##ars
came
##aring
issues
##ource
##red
communication
advantages
behav
academic
##ird
intr
media
compet
distract
rele
percent
sing
ban
##ger
until
took
distance
grades
subject
specific
ultimately
##man
policy
educational
land
##ains
men
##erson
##aking
##ew
##rap
usage
##oring
ill
coll
strateg
option
statement
hon
camp
anal
projects
##ories
cust
extrac
extracurric
vi
##he
influence
##cially
extracurricular
##uable
buy
transport
##sw
trust
later
large
growth
##ability
hal
peoples
night
##erial
studies
##ah
data
assign
american
stuff
teenag
risk
graduate
jobs
fre
music
##aus
##ceed
called
mil
effort
##io
least
gives
term
left
##uck
purp
available
decid
##aces
enter
driver
side
employe
##ique
##ugg
type
prin
countries
particular
oper
giving
cal
field
among
name
police
question
custom
whole
quick
har
increase
longer
present
groups
effects
meth
explore
discuss
guid
within
prob
myself
##erous
members
supp
##ilar
##most
action
##ale
require
##iety
continue
##aged
relationships
share
##iple
##err
begin
quality
needed
desp
##ets
helping
trump
enthusias
light
adm
##ogn
tool
##itions
feeling
impressions
short
perspect
famil
challenges
lack
treat
works
##orn
history
draw
mistakes
various
finan
sat
national
younger
practice
multiple
book
##asing
similar
allowing
method
cann
enthusiasm
deal
espe
##angu
theres
##come
##abor
##oid
material
exc
tradition
##ric
##rem
reduc
##do
##leep
event
especially
issue
coun
##osing
##aging
provides
mid
jour
computer
shows
##for
bal
news
almost
##ength
##ourses
fil
##emp
langu
met
despite
model
sen
women
##ards
##ration
comfort
occ
fight
management
article
wants
higher
answ
dang
##ason
fall
protect
theyre
##ov
grade
##ins
##ret
courses
maint
performance
indust
election
poll
##sequ
##ark
taken
imagination
safe
ste
active
##ensive
concern
hope
bit
save
asked
low
anim
expert
talking
##ball
##ule
half
##vant
##ulation
##ister
##ained
repres
greater
earth
mental
healthy
companies
##ored
arr
##ering
##ument
fav
caus
road
advantage
suc
programs
sug
saying
##atic
increased
##ples
contrib
glob
hes
water
opinions
##ership
include
yet
opp
bro
bey
transportation
account
gir
words
##ax
university
honest
##ances
##ama
unique
third
special
ive
##soci
##aper
strugg
##full
##fect
##ton
##urity
decide
introd
living
##ised
##ued
##verage
ple
et
economic
##ime
teenagers
sleep
wouldnt
kill
options
further
associ
##oud
##few
ra
##ney
beyond
curfew
##ms
depend
current
jud
changes
close
##body
space
instance
cannot
##land
becom
##ived
traditional
##raph
del
priv
deb
typ
##ffic
leave
vol
internet
ann
##outh
probably
local
meaning
science
near
travel
##ides
scient
consequ
feat
##ither
financial
succeed
##aim
visit
areas
importance
##str
##ured
perfect
anyone
source
services
##aut
##ape
lif
recogn
mor
##ters
##ouble
culture
following
nor
##ience
natural
interests
contact
writing
##ising
##anc
common
tax
participate
##ators
implement
room
providing
mess
effic
##enge
limit
bar
##enced
master
loss
yes
language
worth
political
isnt
behavior
risks
##ccer
sal
##unch
ourselves
white
valuable
##hn
listen
behind
pick
##utions
progress
limiting
known
everyday
park
soccer
achieving
involved
##acy
##ought
position
indep
cit
##cip
stre
##fully
##rop
favor
represent
terr
along
required
professional
exist
fel
##set
suggest
regard
da
saf
##ended
##ified
single
girl
avoid
doct
rul
##ows
families
easily
##erv
##ode
init
sched
eyes
##imin
net
##ction
examples
guidance
##ooks
peri
hold
eur
fund
results
period
##erious
area
argue
norm
products
five
##urs
democ
##co
global
concept
##li
essay
black
late
interv
##ged
##ming
fig
challenge
security
equ
##app
viol
employees
aspect
acr
##urch
death
confidence
##ological
##tion
##utes
##aign
green
strength
recent
hu
depart
factors
purpose
sound
john
york
##med
##att
address
safety
places
responsible
learned
helpful
accept
##ats
veh
studying
across
chr
church
decided
hour
campaign
##idents
general
created
million
coming
claim
disag
felt
variety
phot
##ying
takes
season
##use
citiz
questions
##where
##uction
planet
nice
ready
wind
independ
walk
aim
driverless
##eral
discover
allowed
##ral
princip
fed
ir
value
ap
either
drive
leading
tot
increasing
knew
imposs
tasks
saw
task
average
##ires
wond
pa
##backs
pict
building
votes
appear
eat
sex
serious
##encing
er
ge
##ians
##lex
##ator
mr
forward
##fact
party
##itch
##istic
smart
regular
##uit
pain
pret
trouble
lose
prefer
organization
##sy
super
gave
answer
organiz
impossible
object
##ipp
##anced
deep
choices
paper
inn
##dle
entire
##ients
##ablish
industry
evidence
english
##ina
##gn
rob
##uly
confer
quickly
##arch
je
struct
comb
wasnt
motivation
##erc
##reme
vo
constant
usually
adult
prevent
traits
##ibly
considered
gas
cases
pros
persons
official
lost
mars
dest
heart
actions
worry
months
simp
##wor
##ink
thus
cities
kindness
##her
disagree
##by
establish
##ury
court
return
traffic
international
fast
speak
meas
investig
demon
join
players
lower
amaz
humans
insp
creating
##ges
##aff
mov
europe
hur
lets
force
##yle
moment
temp
milit
fair
identify
became
##inist
simply
don
final
push
cred
math
text
##rict
ur
responsibility
adop
##ec
knowing
pressure
##aught
levels
bi
##ison
asking
##let
##ands
cut
situations
##opp
topic
select
##eem
##crib
##ven
##cle
board
attending
engage
refer
check
##ails
dam
clean
boy
collabor
foot
sport
disad
vers
collect
eth
books
terms
gon
sn
soft
additional
ah
##lo
##ief
looked
fit
god
dreams
beaut
##face
ded
##izing
orig
disadvant
medical
freed
##ision
vir
##bo
applic
cou
middle
changing
##den
candidate
consequences
creative
relax
front
ok
##eness
decre
led
line
reading
goes
hands
##imate
focused
gets
sent
##olution
brain
range
rights
##way
changed
huge
non
pollution
daily
skill
simple
##qual
##read
##vert
word
woman
soon
happened
crit
improved
reflect
interested
emotions
wonder
freedom
department
pursue
whats
drug
record
seeking
administ
population
america
throughout
##por
##oses
##ender
tried
famous
review
peers
##ores
becoming
office
stat
powerful
consum
growing
citizens
fear
bill
##icles
##iter
south
##lling
promot
enjoyable
sad
player
receive
candidates
democr
federal
youll
systems
determine
##aks
nature
gun
cow
moreover
difference
ce
heard
demonstr
ant
laws
analys
lunch
##atives
##ware
north
##atever
poor
appe
cir
developing
interesting
##ication
values
modern
russ
associated
##af
attemp
majority
##sych
remain
whatever
star
pretty
military
repl
proper
tend
efficient
tar
origin
##ps
##used
##osp
helped
morning
lat
##erve
cy
began
expected
presid
##chool
mother
economy
##par
balance
altern
vict
##lying
fire
communicate
ground
voters
##ee
faster
##ban
##ograph
##ibilities
brit
wrote
former
table
ago
assist
above
gonna
numerous
hom
explain
sho
encourage
perspective
##lier
exper
psych
related
points
arm
thoughts
##els
drawbacks
fix
emerg
imagine
webs
search
ten
##ott
animals
cover
analysis
interview
running
customers
costs
dise
##ots
obs
designed
##azy
teaching
fore
limited
manag
##uments
staying
##tain
##back
feelings
##ned
vac
confident
bud
image
instit
harder
please
republic
hear
##ane
wide
rules
complex
##ler
reducing
innov
types
pra
prior
experts
##ights
##oint
relig
accomplishment
##ru
hosp
tired
offic
willing
civ
##aced
ut
shown
training
##ips
##issions
##oub
legal
convers
##ruction
##esh
unf
##hood
hit
assignments
spending
forget
rich
earn
voice
##mos
experim
dig
##verse
broad
exerc
series
mis
deg
##ropri
prim
quite
flex
previous
sus
maintain
slow
journ
thom
motivated
##oph
earlier
lastly
staff
comfortable
##iring
communities
door
incred
extreme
defin
##ises
solution
teens
weeks
port
conduct
father
critical
mass
spo
schedule
advert
healthier
hurt
worked
constantly
##egr
rate
scre
analy
requires
facial
offers
##uing
threat
##time
##leg
seems
conditions
added
dom
cop
abs
##erman
eventually
pub
target
##uth
considering
finding
store
oh
dead
appre
##ellig
##vers
jeff
consist
##ams
inside
##aries
correct
shouldnt
aspects
circ
spent
planning
graduating
satis
##aps
heav
sun
idle
amazing
ho
pie
tools
prepare
cool
dark
base
##oing
ali
outcome
integr
showing
events
dad
belief
proud
tour
outdo
##ony
describ
sust
##kn
intellig
seek
six
##phone
##ature
##ife
meeting
figure
itself
journal
doctor
##book
##itted
##ites
hot
americans
features
aud
wait
civil
hy
quote
##boy
##amp
mistake
##esteem
##ley
shape
truly
dear
perspectives
meaningful
thank
himself
dangerous
atmos
##cl
attack
appreci
##ouch
grand
steps
recom
useful
##orr
atmosph
plans
disadvantages
reality
upon
conflic
ep
##ground
##rib
##ried
content
##edi
##ends
lea
emotional
aware
center
inact
arent
selfesteem
strategy
surr
##like
nob
experienced
##ining
minutes
##ift
workers
suff
contro
solutions
tex
engine
price
walking
##force
couldnt
publish
played
secondly
harm
respond
businesses
looks
canad
obst
prepared
lessons
##son
##wise
teams
starting
judge
note
turned
principal
informed
thomas
strategies
enab
introduction
exce
serve
stories
realize
fost
write
exact
normal
held
failed
greatest
tv
climate
##iful
member
inj
provided
organizations
##phones
##oles
initial
emissions
total
completely
dog
##ilt
lin
etc
solve
journey
##dom
involve
reli
favorite
mich
goog
concerns
react
##ron
methods
##alu
efforts
recomm
##tt
ment
mad
item
jun
cruc
lesson
##uted
congress
compared
sil
mic
announ
##atory
software
drivers
nation
passion
wish
developed
##ium
china
foreign
ran
bull
##rupt
cowboy
doc
sources
purch
reve
ang
crucial
enh
electors
##ission
street
telling
stronger
knows
outl
##city
##nam
struggle
truth
attract
bur
polit
environmental
fine
weak
personality
##load
fat
gone
factor
hospital
tele
challenging
surpr
##apt
smo
ball
##hold
structure
leadership
depress
autom
obstac
reported
track
spr
upd
assess
##ana
mach
##bs
##ropriate
partn
wall
argument
obama
conven
particularly
##days
cultural
##ulf
surround
failing
sustain
##aur
##ex
clos
seeing
##vent
##attle
rad
pm
sup
guide
devices
abilities
weight
##arr
sold
movie
##nch
##being
policies
feed
##ston
##fr
##comes
uk
##uel
##bit
waste
##house
ahead
pull
vehicles
cloth
embr
lots
evalu
plays
equal
extending
alternative
produc
##free
exploring
private
highly
##ept
keeping
ele
##rim
productive
production
surve
watching
couple
##umb
below
currently
##ops
sens
choosing
surface
##ze
beautiful
nobody
achieved
promote
##ma
indic
outcomes
sick
faced
brought
adults
wan
touch
lau
recognize
wellbeing
picture
won
##xim
##the
presidential
advance
christ
##amed
british
color
parts
peace
secret
rout
wed
div
atmosphere
german
##term
released
caused
phil
##ered
clint
brother
den
aust
parks
##off
rid
google
##istics
##astic
exec
eating
##ij
card
capital
neigh
mill
deliver
bed
##arter
accur
##ank
profession
mag
computers
tit
trade
eg
fill
neighb
anx
##onse
expand
concent
administration
theory
log
budget
mention
##iction
king
##ushing
fem
mostly
achievement
corpor
##whel
independent
biggest
film
##sec
conferencing
acqu
adding
basket
patients
debate
website
talent
interaction
blood
immig
camer
effectively
fresh
taught
breaks
genericcity
##more
response
wis
##osen
overwhel
pet
encourages
##cing
##ny
leader
guy
medic
##onents
careers
digital
materials
##ik
##ench
exercise
happens
version
mob
##sh
##inct
afric
##arily
moving
democratic
passed
##iet
minim
##ung
menu
immedi
tre
coach
ign
resil
nas
##rate
surv
mastered
weap
speaking
afford
consideration
sam
otherwise
##opping
##to
washing
terror
credit
##itter
courage
contribute
kept
hang
##nes
fourday
disease
ral
potentially
beginning
element
##ening
billion
everybody
forms
flo
strive
bank
hell
degree
##itten
town
apply
##play
scientists
pursuit
background
##hips
device
emerson
son
researchers
release
volun
##ades
size
forced
increasingly
received
lazy
nations
##care
san
##ague
##cer
parent
dav
reveal
##urance
pred
plat
basic
minister
##lications
influences
oil
carry
bir
born
host
##ging
launch
##udes
contract
characters
##just
spread
##onom
expensive
engaging
dress
##ald
sect
eye
ralph
jap
behavi
demand
fully
dedication
##ival
standard
region
##cil
chose
##place
fulf
##ume
okay
shot
weve
movement
##ped
##mber
notes
homes
reward
district
pen
marketing
subst
crime
wonderful
##rel
continued
hair
details
youve
reduced
network
creativity
believed
message
distracted
waldo
##ulations
unless
handle
failures
includes
tests
mal
##mates
paying
users
leads
tom
shoot
killed
depends
justice
fewer
##abilities
bab
bike
pack
thous
code
missing
box
crimin
assignment
built
compl
##iday
race
forces
alot
sexual
lab
smaller
##ened
appropriate
##uary
fulfill
die
doub
unfair
paid
recently
nav
decrease
ine
primary
##itable
##isl
chosen
##eria
busy
anymore
appl
practices
email
rac
match
manager
hop
##faction
lay
congest
greenhouse
income
obv
##iar
rise
authorities
japan
il
breat
jefferson
leaving
burn
cod
connected
optim
leaders
##sc
smile
wanna
constit
round
restaur
ye
somebody
virt
##fl
capable
capac
elections
original
overcome
competition
initi
remind
##crip
clearly
football
##has
##erely
inval
carefully
putting
patient
collaboration
clubs
council
extended
excell
voting
realized
washington
basketball
obvious
err
matters
subjects
west
occur
advanced
weather
plus
lifest
##aft
speed
lu
##omb
significantly
lifes
vehicle
showed
directly
except
victim
expectations
liter
pan
drama
extremely
exactly
uses
##ai
firstly
shar
platform
##iqu
intelligence
manner
firm
manu
appeal
congestion
girls
written
##oper
##ese
basis
disp
mark
improving
clinton
catch
function
rule
wake
connection
competitive
##ech
##ternal
##enty
austral
cellphones
##orter
purposes
##iced
revolution
incredibly
responsibilities
thinks
legisl
meant
##ification
treatment
page
##of
participating
governments
oppos
##lam
sister
sky
##etic
libr
manufact
officials
larger
obstacles
emb
streets
nearly
distraction
##ros
century
##light
disapp
customer
counter
chances
mond
##ios
shared
##ext
##icul
apple
style
wife
prove
invent
recommend
critic
facebook
labor
instruct
productivity
flexibility
screen
spir
outlook
##ested
accident
happiness
seemed
gold
hund
##itor
commitment
##xic
doll
introduc
foster
brown
repe
##oration
standards
identity
advent
##others
aid
nut
experiment
scientific
separ
employee
volunte
hous
##olving
scr
latest
jan
temper
cele
items
##person
direction
##izes
apart
##mb
differences
adjust
drop
propert
##ension
waiting
saving
##ologies
ath
calif
supposed
site
cold
shop
thanks
arts
ver
pal
mand
insight
regarding
circum
defense
##elf
mc
lic
##agraph
determination
laugh
elective
capt
emphas
european
capacity
depression
rates
mart
##reg
date
##icing
sometime
celebr
unc
##bon
##encies
sell
##asc
cultures
send
liber
##dr
##chan
exh
rock
loved
gam
diverse
##ault
bigger
invaluable
todays
##rew
boost
impacts
##ulate
personally
offering
ensures
anxiety
##based
battle
depending
song
beliefs
cross
bored
chem
generation
guys
seven
causes
inactivity
bat
winston
##lled
churchill
##raid
emergency
location
succ
accidents
died
counsel
toward
investigation
cast
brand
californ
electron
##ocks
ride
eight
sitting
scen
vacation
od
arch
paragraph
closer
condition
external
context
march
consists
application
afraid
losing
violence
societ
operations
detail
blue
piece
outdoors
##sever
worse
notice
##lim
longterm
focusing
electric
paris
##owing
formed
joy
monday
anywhere
pushing
amb
##acing
##put
##iff
decl
mount
##ilit
facing
satisfaction
conflict
##raft
affected
prime
sharing
persever
syr
concepts
letter
properly
##oul
feels
restrict
landform
##ests
print
##ipped
##eless
implications
bes
mechan
existing
stage
worst
topics
##nel
damage
##iveness
sud
acts
determined
##iency
photo
agency
pace
connections
mur
tough
gender
##itely
certainly
cry
infr
attitudes
##reh
fell
gather
resource
offered
##ancing
hate
drugs
bott
conserv
strongly
sort
cancer
stressful
pic
sand
shap
becomes
privacy
mindset
images
##inese
winning
requirements
trip
expressions
cooper
cook
continues
videos
rom
##cious
install
htt
oce
rap
central
investment
hill
remains
happening
engaged
chinese
winter
prompt
arguments
squ
schedul
mix
demonstrate
##oon
block
##airs
minds
views
worlds
wealth
speech
perm
weigh
##ww
moral
frequ
compreh
finished
dy
##vision
##ustr
##eed
stated
stra
funct
regardless
autonom
measure
##craft
criminal
##order
##enses
facts
republican
bound
##ulated
reports
la
shopping
uns
foundation
circumst
boss
rely
measures
execut
director
sinc
resilience
fighting
brings
conversation
vital
##iation
guard
sustainable
hall
##ively
convin
havent
kore
unable
tells
insurance
friday
relevant
exch
##right
produce
listening
david
processes
distractions
similarly
included
announced
epis
util
cris
##ae
swe
windows
struggling
officer
california
cup
ben
perh
construction
wisdom
##acking
lond
##plom
status
possibility
careful
discussion
frame
discour
skin
##coming
histor
workplace
incor
paths
alle
pictures
##mer
##erved
diplom
lifestyle
illeg
danger
unlike
deciding
perhaps
##ament
carbon
religious
caf
##tered
schol
##agn
attempt
destro
urban
generally
diet
seag
nasa
agre
concerned
technologies
elimin
mission
maxim
completing
islam
companys
train
dut
instr
completed
union
league
published
##bi
prices
core
officers
stopped
wild
isra
cat
oneself
tues
whe
stores
plant
##ession
solar
##bed
healthcare
straight
copy
spring
##ael
distrib
tur
parties
smog
numbers
compr
seagoing
established
scared
##ste
hey
##iju
bond
presence
senior
pun
##go
isol
london
sales
stock
survey
tut
##ster
starts
crash
east
##ox
##eter
whose
document
fuel
feet
spot
detect
apr
moved
guess
fish
confir
feedback
##owers
maintaining
france
neighbor
sincerely
##uries
exploration
##ables
##aph
employers
hob
appreciate
hol
pattern
actual
##owd
shes
secure
influenced
elements
##know
boring
birth
##conf
zone
##anch
advertise
mariju
slowly
partnership
someones
sel
committe
improvement
opened
definitely
russian
doctors
##ersons
conference
electives
rush
lasting
swim
whenever
senate
yell
fal
stuck
employment
tuesday
compar
dish
##rain
command
marijuana
circumstances
ship
comment
weekend
committing
residents
interactions
purchase
immediately
chief
serves
prem
##iling
authors
difficulty
partner
named
emotion
forg
equip
switch
hor
geor
russia
##lin
##works
engagement
crisis
james
jump
##iny
alien
claims
coding
beach
reb
praise
passing
implementation
tack
stressed
protection
score
##ucle
honesty
foods
calls
sudden
references
##key
caught
feature
agreement
raised
educators
##uting
possibly
##year
section
graduation
divers
##rant
facs
floor
##ker
title
spirit
valid
supported
##de
reached
movies
fif
micros
ensuring
##itar
vision
lived
file
##hol
faith
bod
##idge
consumers
quiet
##lig
excellent
ca
construct
millions
wood
lie
walked
moments
luck
raise
largest
##me
contrast
##pped
##oft
reaching
marri
mobile
warn
canada
##rants
##iques
sept
nucle
constitution
supply
excited
overwhelmed
advertisement
##arely
answers
senator
via
##fortun
sounds
##iles
texas
enforce
categ
##iant
##board
april
nurs
##nesses
michael
##cient
weapons
##school
##ortion
israel
adopted
practical
##ram
##ford
donald
oct
click
##ls
suggests
dece
##itude
##aly
sea
decades
twitter
organized
propos
minor
aug
possibilities
operating
tast
ii
managed
appears
##unt
highest
applied
##ida
implementing
esc
collage
ice
##bert
cowboys
sund
apps
##uase
##ky
##iled
involves
philos
camera
accepted
##mar
sett
thurs
acknow
thousands
increases
flor
swing
##estern
mer
limits
sector
doubt
likes
##umption
yeah
angry
buying
asse
motivate
shad
pp
goods
display
##gs
##ously
committed
classrooms
accurate
expression
property
identified
proposed
treated
standing
generations
illegal
mentioned
keeps
##iers
shift
heres
slight
creation
innovative
techniques
wise
subs
hearing
technological
conducted
unfortun
fans
wit
prison
shut
desire
daugh
ended
assistance
##arant
quarter
sor
germany
##making
efficiency
aliens
rewards
coff
##iven
friendly
occas
hero
##ube
selfconf
paul
followed
committee
occup
classmates
acce
nuclear
band
restaurant
user
##bits
shorter
enhance
exciting
##pa
filled
mouth
mexic
elementary
problemsolving
religion
bow
medicine
narr
stream
involvement
causing
machine
sole
fort
curfews
june
television
##ception
athlet
cafet
##wide
##bl
animal
promoting
beat
destroy
gar
##astruct
presented
baby
infrastruct
bright
models
chec
##ss
##iture
##ished
##zz
##mon
gained
attacks
greatly
sides
complic
dedic
navig
clothes
faces
wednes
dangers
previously
encoun
wel
noted
muslim
miles
resist
familiar
thursday
reliable
charge
facilit
##agues
calc
gaining
totally
french
commer
microsoft
domin
accomplished
internal
chair
elected
actively
convenient
##my
transform
authority
horr
satur
combination
principles
african
onto
##olute
becuase
perce
##lly
formation
ox
army
teenager
memory
chemical
##areness
adapt
ru
kinds
relative
excl
##eto
exchange
##izz
##ancy
ancient
deeper
heat
beauty
teamwork
characteristics
##arm
##enew
drag
innovation
##cast
##ids
shy
##onent
creates
##imes
regions
photograph
##icted
download
##irt
drin
described
texting
warm
discovered
findings
posit
wednesday
bul
revealed
guarant
mut
du
##aint
comments
administr
recover
reform
##uits
detrim
politics
conversations
##round
seriously
##cohol
##inary
##enue
rand
obtain
applications
scenar
ira
##cs
implemented
fing
confused
ownership
whom
muse
##but
located
fourth
infrastructure
fields
trumps
strengths
prec
encouraging
affects
http
bag
span
successes
##racy
##lies
##une
absolute
markets
institutions
eu
beac
##going
##pan
grew
theyve
incident
crowd
entertain
audience
suspect
independence
advoc
heavy
##known
##igned
nd
breaking
teaches
prepar
female
transition
ocean
researching
##olve
##ham
alcohol
somewhere
marriage
arab
physically
jew
##ta
letting
episode
commission
sib
consult
ethical
necessarily
##iration
resulting
##bing
##rial
calm
##gen
champ
virtual
extend
jer
india
executive
bills
scholars
doors
ord
participation
##lder
colleges
photos
praising
coffee
ange
##istan
estim
achievements
##oms
cited
##cles
fant
##ino
nur
##opped
##ners
##prene
western
curricul
reduction
association
##vable
hence
veget
convenience
corporate
dollars
grab
appar
museum
falling
difficulties
##while
univer
susp
link
enable
entre
insights
none
##tr
discip
##friend
professionals
vari
argued
update
##point
proced
yearold
basically
approaches
habit
unp
interp
indeed
hid
florida
detrimental
appeared
solving
robert
vast
entreprene
winner
representation
clin
##band
wear
graduated
hus
blog
believes
outdoor
##ocket
noticed
encouraged
lies
##iam
tow
mood
visual
pursuing
vill
##ses
renew
afters
oblig
##akers
september
planets
nutr
electronic
july
relying
##osure
surf
##nic
scene
corner
##usive
schooling
remo
cash
safer
controvers
island
glass
succes
station
##icks
settings
iraq
habits
contain
##etime
objectives
county
memories
symp
furn
talked
immense
visiting
sac
##reli
consistent
passions
acting
presents
lawy
length
therap
hi
conserve
library
january
proven
##how
reject
flexible
que
supports
##equ
continu
##itation
equipment
##gment
selfconfidence
##yles
underst
prospect
stood
typically
massive
murder
sunday
enem
window
holding
##down
##atically
dealing
##aust
fan
uncle
##oyal
possess
planned
spoke
curriculum
afterschool
inspired
##ipe
satisf
incorpor
mel
besides
neverth
disrupt
calling
countrys
behaviors
suffer
species
##pping
attor
cyber
male
successfully
testing
kick
ing
spokes
universe
##ey
##iate
desired
comprom
artist
##verty
psychological
breath
theyll
poverty
names
practicing
requirement
summary
##stein
##lines
rewarding
shooting
gal
forever
roads
positively
placed
ideal
incredible
bog
##la
nove
receiving
grant
##ooking
contents
##cription
##athers
nevertheless
##erent
smith
turning
temperature
neighborhood
supporting
abuse
dynam
nerv
brief
##weigh
solid
accessible
operation
qualities
chap
false
analyz
##ciple
instinct
unfortunately
partners
seconds
##enth
tail
awareness
replace
talents
scientist
periods
drink
cafeteria
##ighter
criticism
divid
vary
##rens
ec
mir
enabled
requiring
plants
novel
democracy
sorry
##ole
organizational
lines
outweigh
taxes
##ota
explains
philosoph
mine
sem
principle
award
pu
##elling
supreme
youth
license
wars
##can
assessment
arms
analyze
rain
explained
politic
##ef
dan
carr
discussed
passage
decreased
engineering
hed
introduced
adequ
tu
stick
mort
covered
embrace
clar
accomplishments
entirely
##val
closed
missed
victims
##related
funding
tor
motor
forgot
november
soul
broken
appearance
daughter
theories
subur
heavily
churchills
rapid
unit
herself
##unk
##eav
##mit
plenty
draft
emersons
assault
balanced
gard
signed
lean
childrens
decisionmaking
suit
request
define
##using
surrounding
robot
din
carfree
snow
##amental
conclude
surprise
australia
fbi
ip
mac
linked
##des
consumption
cards
exposed
pride
painting
##ding
republicans
components
##orrow
monit
belong
entertainment
tick
fundamental
strategic
sets
rein
enforcement
##estic
clients
##ements
parking
individuality
debt
iphone
colon
roles
mindful
crazy
perseverance
rig
##working
existence
gree
consumer
##pir
furniture
##holders
profound
reference
efficiently
##mod
indian
diploma
tree
##lings
quant
collection
endeav
roll
albert
##roid
mes
trial
everywhere
records
diversity
diseases
widely
edit
##nn
recognition
managers
bodies
vau
stake
priorit
radio
cogn
lou
abol
hun
thor
infect
served
harmful
passionate
alleged
ny
trend
august
fasc
##iest
destination
##apers
regulations
driven
seas
organis
##bc
immigrants
##box
passeng
##fficient
cous
ms
protest
##gu
fellow
advis
pleas
scream
defend
minimum
december
worried
ages
evening
##ading
disappoint
##pro
adopt
river
intel
transl
obt
largely
produced
reput
functions
conform
##ipping
heshe
evaluate
swimming
pieces
sites
transfer
comprehensive
firms
gotten
liked
percentage
striving
boundaries
experiments
interns
##ba
diagn
##ober
##istry
##ifications
separate
rub
explan
##roll
instant
carried
opening
hyp
##ym
opposite
pair
aggress
attrib
rang
##rich
boys
##ha
persu
inactive
traveling
spl
edge
respectful
##mas
assigned
nervous
saturday
vib
conscious
secretary
limitations
throw
professor
believing
##sa
cellphone
hundred
wheel
seat
effectiveness
annual
pulled
##inated
chain
##entions
inspire
banks
suddenly
##ka
##eration
strange
killing
instrument
bitco
stars
scale
capabilities
##bal
meat
##ocking
fixed
random
observ
##itz
environments
##ils
specifically
trem
##orary
turns
george
era
movements
sir
reaction
funds
surg
korea
fle
enthusi
promotes
complicated
october
landsc
los
coal
drawing
lying
bath
technical
twice
supportive
studied
participants
##ena
credits
##inal
highlight
pushed
##rees
bringing
ros
agreed
##here
defe
nom
colleagues
register
expans
differently
inspiration
error
gaming
bottom
fake
negot
##oted
managing
twe
survive
positions
selling
stability
tro
##ishing
hide
sleeping
uncom
finishing
##icy
happier
severe
frustr
##dy
concentrate
batter
obviously
watched
fly
##hib
wearing
defined
rough
yout
##ago
richard
distinct
initiative
regret
waves
os
owner
initially
flow
arrested
trends
##ray
input
humanity
syria
##berg
##bur
exhaust
##hand
##uses
anyway
suggested
lights
phen
##worth
chat
jack
articles
lapt
##field
minute
tight
terrible
joining
cas
##hy
##ifying
noise
figures
##reds
evident
ton
##retch
luke
prosec
websites
fault
combat
worker
legislation
py
islamic
democrats
iran
intended
understood
##sey
##ocol
conflicts
childhood
affordable
##elines
##athy
instruction
lone
commercial
van
extensive
##onic
stone
ingred
##aded
consequently
##erving
trips
persist
mainly
gay
presidency
housing
immigration
werent
nine
clim
remote
reputation
ken
witness
shall
talks
steve
mandatory
adventure
vul
pregn
resulted
##quality
hind
enjoyed
##icip
picked
dropped
mentors
wo
##aling
objects
thick
coast
obes
bush
chick
literature
franc
##pper
grown
cultiv
##irty
trail
intelligent
hillary
joined
viewed
proposal
vent
##ett
substant
canadian
usa
desk
revenue
selves
farm
##char
sight
tall
##ester
gap
profit
fulfilling
solely
amend
obesity
##han
charged
selfreli
##bec
integral
trees
empower
enables
societies
memor
##rimination
fathers
nfl
discrimination
messages
mcc
##wood
alt
riding
alex
ped
upset
entering
##isc
forming
siblings
contemp
unw
husband
wil
shock
chic
historical
whos
units
documents
beings
strict
##aa
##view
##aters
deaths
slightly
brothers
taste
africa
expenses
border
powers
electricity
##aked
violent
framework
appoint
cooperation
##ki
occurred
phenom
learners
compare
volunteer
ze
buildings
cells
anger
##ography
exposure
##ificial
vauban
android
workforce
##ager
##esome
retail
hundreds
##erior
convention
clothing
weapon
charges
dram
youtube
pool
##atures
attorney
flu
thorough
household
institute
machines
rent
languages
announce
symb
victory
smooth
##inating
twenty
##health
predict
ends
youd
selected
encounter
cert
decline
citizen
comparison
resolution
##iel
psychology
fatal
sympt
jail
##yl
##ius
map
writer
schedules
absolutely
##uge
opposed
##cons
stim
alive
virgin
patterns
mas
incent
owners
countless
normally
##uded
accused
trait
theme
overl
myst
sacr
##ek
industries
shif
meals
institution
##ara
stretch
diss
##standing
negatively
genericschool
meal
component
preparing
representatives
fuck
remove
puts
opposition
reasonable
delivery
##antic
##men
cognitive
overwhelming
nod
##oty
domestic
gh
awesome
graph
arise
contains
##ashion
poster
suffering
aimed
embracing
mode
dance
campus
claimed
distribution
##wal
##don
mexico
##bies
bought
fu
anybody
loud
houses
vulner
##ris
bomb
##inent
faceto
selection
symbol
facetoface
wanting
priority
aftern
till
observed
##night
##orders
authent
autonomous
dependent
dedicated
retain
baseball
homeless
mature
guitar
##cript
tie
##ounds
demands
broke
magic
ie
rose
remaining
universities
dogs
bitcoin
decade
crimes
worthy
drinking
##uters
counts
networks
soldiers
##ypt
agencies
dial
double
hung
mos
##enn
##pass
##awn
sale
##asp
spanish
vice
ein
##icide
deserve
##urally
describe
represents
punish
cloud
##aud
excess
closely
egypt
##asy
##illing
enfor
objective
inner
##riers
discussing
degrees
vs
guidelines
shit
disadvantage
japanese
manufactur
evolution
quit
signs
strang
detailed
champions
##well
importantly
substantial
##what
plastic
arrived
leis
reliance
##resp
hotel
fails
alike
amazon
weird
statistics
preferences
christian
jim
extent
##ties
##hab
files
injuries
mary
##adays
refuge
routine
interpret
nowadays
avoiding
prote
burden
magn
liqu
johnson
upcoming
unl
rising
na
readers
shaped
barely
der
guns
bay
metal
muscles
##iment
afternoon
elder
storm
evil
coord
launched
smarter
england
##bre
##ona
bother
pil
proof
unknown
ts
ju
sum
funny
limitation
ignore
server
ren
bullying
mentally
confirmed
shel
setbacks
tremend
fuc
tournam
ease
##igue
realistic
surprised
##inc
##inate
spaces
posted
##bruary
acceler
##inter
sweet
##itect
button
facilities
fired
famously
autonomy
compete
lifetime
urge
##ero
weaknesses
convince
bunch
mig
##icking
proceed
beg
investing
districts
acknowled
accounts
holds
influencing
sufficient
magaz
immediate
alb
##action
architect
cart
##lets
independently
leisure
kitch
monitor
platforms
jes
racial
relatively
nurse
lawyer
rat
##fall
february
ongoing
introduce
chicago
kingdom
##erning
##isions
inev
division
astr
##oes
runs
symptoms
dur
yours
selfreliance
makeup
equally
aims
shoes
gym
blind
operate
injury
conservative
tackle
centers
demonstrated
repeated
collective
##head
saved
enabling
##ads
undert
##olved
payment
threats
wider
carefree
experiencing
mountain
##owned
acquire
##oe
hire
moon
earths
seasons
instincts
fashion
intention
picking
voted
ruling
##gers
neither
leaves
presidents
sharp
explaining
advertising
hobbies
##osis
concentration
##unity
pressures
adoption
##ded
womens
##employ
artificial
norms
cooking
##ulating
begins
gift
expertise
##amas
##ille
tab
chapter
sar
trib
compass
##lights
##inations
commitments
attempts
native
##osition
prioritize
coverage
regional
agr
advise
datab
collaborate
##abet
appreciation
assets
deeply
expansion
flash
competit
crew
dc
##rated
usual
supporters
defic
privile
accommod
discussions
struggles
##erry
enjoying
francis
craft
stup
##ees
syn
las
presentation
structures
##aver
discipline
injured
tutor
voter
forcing
unhealth
stands
##designed
##ogen
empty
dim
##riend
flight
bicy
ash
carol
focuses
##ucks
fox
thier
trash
amounts
savings
uncertain
client
recognized
lord
##oom
married
##cy
##ghan
meanwhile
missions
evaluation
stri
attendance
optimistic
compromise
delic
genu
follows
route
bob
##part
applying
suppose
sending
smell
loan
##zen
hadnt
aside
territ
arrive
kitchen
controlled
nursing
adequate
mike
prevents
genuine
newsp
jones
wins
preparation
perception
films
bridge
issued
cab
returned
emails
opponents
lect
attach
industrial
unemploy
moves
colors
##life
inperson
continuing
sought
tips
height
advers
adopting
beacuse
##erves
intellect
employer
veter
mans
cycle
resolve
discovery
##kin
##osh
cousin
hisher
visitors
enrich
##ogue
inspiring
##esis
disabilities
infl
advances
interactive
biking
guarantee
stable
prohib
unne
electing
pointed
##under
##vin
combined
unhealthy
confr
reader
ly
##arian
attractive
haw
finance
wage
estimated
controversial
pray
anth
##agon
improvements
haz
shr
##outs
authentic
frequently
##pet
simpl
addressed
mit
ps
investors
concerning
ow
rare
ethics
##list
disaster
sentence
regularly
involving
britain
bear
##ping
automob
stakeholders
##isters
explanation
southern
tomorrow
wasting
empire
frank
personnel
afghan
alert
depl
sees
##mate
ultimate
trusted
thousand
##eds
incom
stor
investments
complain
papers
##aws
row
filed
entrepreneurs
yellow
definition
monitoring
contributed
duty
excel
##fortable
correctly
##itals
##ums
facilitate
mechanism
representative
walls
phenomen
##vis
colomb
reduces
stupid
backgrounds
##word
margin
escape
##long
argues
liberal
reuters
judgment
nutrition
attempting
succesful
ry
joint
loves
removed
adoles
description
ingredients
rot
##fit
##pting
unnecess
loose
branch
geological
tremendous
pod
intim
artists
senators
terrorist
hasnt
smoke
refused
##iot
dism
significance
##sp
strike
bogot
whis
illness
agricult
forth
courts
palest
exhib
carrying
restrictions
workload
##ooked
maximum
apartment
peer
vacations
counselor
##ns
finds
lis
cameras
ram
##iber
steel
relation
odd
param
gall
vit
accomplishing
honestly
restaurants
modes
chris
remained
##ilty
unlikely
spect
relief
remark
asset
##aker
scott
mathem
toy
educated
blame
approxim
volcan
versus
occasion
bowl
##ador
dinner
advancements
atl
embarr
fees
motion
establishing
muscle
obstacle
##col
embarrass
selfd
esteem
trig
patience
dar
##cling
bathroom
downs
initiatives
phr
certainty
dies
stayed
##illance
determining
iv
australian
syrian
deploy
martin
##ality
dow
##alled
hoping
alloc
warming
contributing
equality
penal
grate
examine
tun
citys
mi
locations
collaborative
referred
##ror
theor
captain
troub
strain
surveillance
einstein
terrorism
liquid
bure
nh
tact
##oin
##itative
cuts
##ocr
plane
##ii
assert
identifying
upgr
manufacturing
isolated
ring
highlights
skip
academically
##ola
programming
childs
sample
scrip
om
##ingu
reminder
uncomfortable
foss
assum
chicken
songs
philosophy
##ado
runoff
confront
worldwide
gaz
gods
horiz
##ari
glad
bost
pocket
##kins
##rep
itll
package
amendment
loyal
serving
scores
confusion
##teen
crack
spacecraft
landscape
compassion
promise
entered
partial
thirdly
procedures
ber
gang
enhanced
wave
silence
errors
orient
fatigue
##ouds
distur
expressed
fifth
##aunt
occurr
##wr
societal
hat
raising
pak
inch
aircraft
americas
salary
braz
ib
perceived
availability
##rey
neur
##lfriend
hidden
bol
coc
##ensions
promotion
fucking
formal
smoking
##cul
peaceful
renewable
jesus
##onnect
##ername
harv
expanding
navigate
surrounded
rude
##hen
advertis
##rod
replaced
stages
explo
##names
technique
generate
ethnic
##you
cub
##azz
ukrain
libraries
hypoth
##abetes
welcome
##ensity
##ga
singing
##oxide
unnecessary
##cel
temperatures
writ
willingness
cnn
ske
isolation
prospects
##makers
academics
chest
trained
partnerships
vegetables
quiz
statements
centuries
athletes
lady
clouds
friendship
ko
sigh
entry
introducing
##astically
sugar
split
##essions
accountability
dil
somehow
communications
##usions
diabetes
unus
##respect
illust
##world
giant
align
##iance
updated
jr
##asters
naturally
recommended
tower
tes
mayor
yearround
underm
andor
##ih
##illed
relate
surprising
square
suitable
dub
michel
##because
soph
##lls
thoughtful
prol
legs
communicating
inher
agent
meetings
viet
salt
scenario
##otes
alleg
##oof
perman
flav
intervention
resistance
bureau
trick
attain
listed
integrity
suicide
##agram
saud
spokesman
##iams
shares
##osion
corrupt
ax
functional
outd
galax
styles
peter
obtained
pac
angeles
##anes
resilient
aggressive
voc
##ression
boston
abortion
lit
##ubb
cutting
sword
departments
supplies
adds
nurses
collected
chart
phase
mothers
lift
impressive
maximize
storage
campaigns
consistently
chin
ordered
cheap
performing
yo
spin
originally
everyones
winn
nearby
martian
orders
cha
overse
approximately
compens
outdated
##enance
neck
##unes
volunteering
stom
illustr
flat
##owed
preventing
cu
stared
horse
disney
proved
manip
spain
innoc
investigate
actors
alternatives
tries
asks
negoti
duties
scenarios
honor
succeeding
irr
batt
##olf
##ffect
cleaning
pitch
therapy
forest
##amin
channel
##mind
bon
facility
##ented
armed
socialize
cheat
fossil
nt
eastern
barriers
yester
surgery
extr
pc
ending
eliminate
sons
##ica
##print
louis
soc
##irect
advancement
depth
brows
centre
laptop
drastically
##iform
##ided
heads
midnight
##hi
williams
tuition
hack
fro
columb
##ographic
crying
intense
##gust
staring
parli
northern
cos
frust
tang
closest
hr
assume
updates
instructions
fol
##da
founding
notion
critics
enemy
exceed
proves
receives
##rol
rural
guilty
grateful
ll
affairs
approved
dying
groc
weekends
##ann
drawn
offensive
cream
tourism
delay
clinical
ol
hopefully
virginia
luc
friendships
payments
targeted
mathemat
##oned
indicate
##pool
posts
corporation
eager
wherever
array
##personal
addressing
overs
##father
##org
tone
ford
employed
tiny
searching
lock
pedest
brains
equipped
broader
describes
surfing
##ville
flag
neglect
behave
universal
vulnerable
recommendations
reflection
whit
dry
scan
##arsh
arrest
cheating
lux
rail
##los
##sole
provin
primarily
intimid
acquired
multip
##iders
uniform
##bel
discouraged
phenomenon
influential
sensors
ron
##ales
distracting
anticip
##rent
perfectly
frustrated
affecting
plot
carolina
##bt
ther
ham
lucky
bac
empathy
profits
##ml
##ula
addiction
conservation
##icate
##igan
brad
gases
unex
returns
andrew
beer
mutual
pure
schem
currency
indicates
acknowledge
apparently
rosenth
disorder
shirt
##neys
rh
##ux
stad
dust
lee
rating
##found
adap
interpersonal
##aves
interf
intellectual
brazil
chemicals
internships
pakistan
kar
stere
##enders
tested
interviews
yesterday
zo
##lor
deals
hel
keys
responded
mm
##thr
exams
legend
divide
##stud
mall
instances
whereas
##pected
lake
developers
inequality
captured
mont
rd
prominent
automatically
adversity
unusual
wides
##lessly
shout
inevitable
ceo
rarely
recip
maintenance
typical
battery
buses
opens
boat
contribution
parliament
nose
##ingly
risky
chronic
earned
##icious
sequ
latter
junior
agend
##greg
##omet
aiming
##che
preval
prevention
shadow
analyzing
rum
##fast
##real
banned
strengthen
subsequ
flying
inapp
iron
civilization
##oot
agents
replied
##onym
##pread
playoff
hole
##eted
aband
achievable
girlfriend
encouragement
rapidly
resem
horrible
elderly
outs
nov
extracurriculars
falls
ignored
hanging
exemp
##tions
popularity
##itarian
##rets
jersey
##pes
globe
screens
copyright
##xual
elses
sanders
laid
jewish
database
widespread
butter
reporting
protecting
delivered
birthday
nic
stomach
ble
underlying
icon
disgust
subt
stepping
micro
downt
##anging
voices
unemployment
mitig
anytime
walks
designs
hello
divided
speaks
pizz
genetic
burnout
positivity
directions
harsh
##ander
homeschool
mesa
##vey
alter
wash
revolutionized
competitors
##rete
recovery
joe
##aled
harass
exists
tea
##iosity
repeat
fought
##ller
harry
protected
rosenthal
provision
scar
fraud
##aken
minority
stadium
toler
considerable
gains
viable
suffered
##irable
smiled
##cont
troops
tournament
virus
wire
labour
caring
satisfied
cannab
##licit
ruin
toront
lad
gest
gates
denied
drunk
admit
bonds
persuade
##charge
##ifies
format
##anta
##uls
refres
adolesc
tan
wid
##amb
milk
fulfillment
threw
physic
barr
confirm
compelling
bullied
populations
amongst
announcement
subscrib
dancing
##gments
gd
anc
annoy
##gl
interacting
saudi
##idays
gathering
finger
output
edition
coursework
##imp
facult
duke
palestin
somethings
defensive
sustainability
mobility
##ifi
creatures
bread
newspaper
demonstrates
obligations
##iy
corporations
spar
golden
mixed
discourage
wasted
village
fest
distant
hopes
writers
instruments
targets
jon
fitness
dioxide
##rest
tho
alg
flood
assistant
assemb
category
trigger
rational
##een
##nis
concluded
performed
scope
francisco
galaxy
behaviour
destroyed
wound
checking
refers
designing
politicians
transit
organize
mirror
economics
cowork
portion
worrying
capture
ships
ours
didn
selfs
enterpr
lisa
permit
fantastic
bench
disconnect
##books
##ctions
##utors
curiosity
reporters
integrated
racism
chooses
warning
nba
ambition
acid
elig
reactions
illustrate
editor
occurs
precise
##asts
belive
viking
quicker
dishes
acceptance
selecting
##erate
hac
accepting
cs
##win
somewhat
script
##iat
##any
approval
nights
kinda
trading
pill
zones
##idential
cru
jose
##case
insec
##ople
ech
proponents
##lihood
william
frequent
thy
salv
tutoring
tort
##otic
kim
struggled
alongside
mrs
structured
fascinating
##kers
classic
##they
emphasis
bid
fruits
likelihood
joke
critically
sessions
contemporary
frustration
dict
isis
consent
smiling
regul
broadcast
cope
asleep
truck
dragon
ai
theyd
##ceptions
gear
hospitals
safely
shadows
##utor
##opher
aspir
resc
arrange
globalization
ohio
muslims
excite
fantasy
album
tears
discl
researcher
cham
esp
medium
passenger
cd
diction
##alf
bully
instructor
approached
superior
hiring
retire
versions
mountains
territory
##ora
invention
sooner
accuracy
narrow
xbox
yield
electr
legit
remarkable
sevent
observe
sau
reasoning
permission
##mart
links
label
##odes
excellence
stereoty
stan
theirs
respected
purchasing
kr
inqu
comparing
contrary
silver
granted
contributes
recorded
oz
##iano
survival
manufacturers
agenda
accurately
pit
##anda
surroundings
ba
grass
dismiss
##aching
contributions
organisation
volume
tutorial
pages
##aming
brave
ministry
marked
threeyear
commonly
protein
gpa
conclusions
dynamic
ticket
winnert
##ensus
governor
handling
improves
qualified
absent
categories
manif
shoulder
desper
perceive
fingers
welf
advertisements
nu
##omed
transpar
refugees
hen
##ht
asian
load
passengers
magazine
offense
delicious
regulation
embraced
defeat
unexpected
faculty
silent
nin
afghanistan
##lete
##ashing
clock
speaker
rape
pizza
##ship
rejected
nsa
creature
absor
indicated
aver
marine
caption
visited
darkness
cig
socially
succeeded
shed
tag
dressed
gate
##level
endeavors
hardware
pilot
toronto
stab
lands
establishment
fostering
welfare
stun
cheaper
pin
themself
educate
advantageous
networking
excessive
ou
##gy
tank
represented
cath
rif
pron
##comm
appealing
properties
jacks
##tons
##fs
parttime
##umptions
convinced
hobby
medication
neighbors
zeal
bicycle
##minded
les
knock
index
damn
birds
pleasure
coalition
ht
mail
owned
oly
##ada
destruction
relaxation
reviews
lawsuit
electronics
controlling
differents
responses
##atis
##unction
audio
fuels
wy
##power
treating
cere
lob
##pay
completion
##ups
snap
thirty
engineer
permanent
bang
apparent
asia
chocol
patri
##lands
##illy
boyfriend
administrators
enemies
cultivate
inappropriate
scored
endless
losses
garden
fruit
recre
founded
relaxing
gop
hired
sed
zero
essence
fears
emotionally
bible
dw
##rance
bell
implies
##met
teenage
uae
##rian
itunes
##americ
scary
amp
profile
integration
##itzer
##aunting
excuse
paint
auto
bm
##ologists
gi
academy
##versely
soldier
##actions
config
vacc
##acc
providers
korean
kh
layer
israeli
recr
bless
directed
upper
##oman
spons
utilize
dilig
ak
legacy
enforced
interfere
aspirations
recipe
panel
hors
procr
firsthand
##ologist
cleaner
pip
sle
##asive
shame
##uctive
christmas
punishment
##ws
scheduled
phrase
bird
enorm
colombia
governance
default
##dd
allies
specialized
depressed
procrast
##uild
grav
##road
assumptions
banking
literally
az
merely
reflects
hardest
regarded
dynamics
dun
struck
overlooked
bias
ot
##ili
regime
merc
##tes
actor
decides
femin
exception
##top
curious
athletic
##orous
dispute
dose
absence
variables
michelange
innocent
schoolwork
raises
olymp
ic
##eries
lifelong
unh
##amm
##ighth
##weight
cannabis
fool
kiss
brands
weakness
royal
##liness
##enues
processing
admitted
##apped
burning
invented
surge
##respond
gut
##ata
alright
studio
bern
referr
optimism
celebrate
tri
attempted
mere
console
orb
##agger
classwork
personalities
sidewal
yards
imper
interrupt
submit
necessity
remembered
disappointed
ss
##ico
##active
negatives
gotta
airport
grandfather
producing
publishing
oo
##eding
teammates
closing
appreciated
michigan
ay
ital
##storm
tap
mentality
portray
##etary
appropri
treas
substance
greece
ds
concrete
##gender
noting
##eline
obamas
fairly
kur
gray
dialogue
daunting
sensitive
continuous
##uk
poly
combine
holly
constructive
teeth
blocks
##ocratic
dumb
##aid
consequence
bags
championship
franch
impacted
intrig
races
##lers
##emic
recall
subm
viewpoint
columbia
excitement
##asion
soil
##isted
knife
##oster
conducting
circle
pose
hispan
buff
propername
##ring
entrepreneur
belonging
intentions
instagram
matt
latin
nick
rocket
max
abd
useless
##rah
applies
functioning
attributed
hungry
##mark
smartphones
sne
##olic
sov
disorders
pursuits
disappointment
recruit
##bor
##rison
essentially
correspond
allegations
myth
##arters
certific
italy
declined
incorrect
lg
##ogy
string
sciences
plate
##rove
##abled
transm
dollar
positives
fate
rode
session
tm
##inity
logical
##mo
personalized
explicit
##class
##etical
##ght
coaches
ambitions
incidents
##abeth
awake
secondary
acquis
diesel
##ache
grandma
breathing
jord
tied
##tod
drives
reveals
##elect
extraord
budd
oceans
accommodate
bust
ties
##keep
outstanding
saves
correl
devast
privilege
han
conspir
populated
accessibility
praised
guardian
dense
incon
expecting
ruled
relaxed
domain
inflation
raw
##jud
adam
extension
equival
##water
##edia
identification
pregnant
por
tire
lips
penn
beside
ryan
dos
chip
operational
##rimin
##hr
##ania
musical
hesit
attacked
procedure
##aving
##hop
##ader
##ffective
jazz
##gas
existed
wealthy
witch
examination
competing
maintained
emerging
venture
gathered
suits
pharm
accompan
surely
##car
regards
##akeall
morale
grabbed
##ched
gif
substit
analyzed
decent
rushed
##eni
lear
horses
unity
connecting
stepped
eb
resume
accountable
emerged
ell
repair
talented
recy
costly
jav
lt
interfer
studentname
subsid
enthusiastic
##wing
casual
bc
lonely
rival
biology
gent
wet
letters
wondering
navy
vibrant
##friendly
thoroughly
troubles
cia
chocolate
stem
##arded
wages
##inn
turkey
fisc
##bac
suited
figured
romney
tee
capability
economies
bottle
fortun
enormous
orange
inspect
sams
##rie
brill
temporary
wondered
oport
hardly
encountered
edison
monster
preference
clintons
##stream
##orted
une
trusting
scratch
emphasizes
mortg
##fc
outlet
recognizing
bikes
##isons
controls
gdp
rides
developments
valued
thro
chairman
parad
mile
dropping
reprod
himher
rod
tay
notable
##net
##hs
##step
greek
barack
counselors
blow
excer
crashes
##berry
signal
loving
answered
oxford
begun
architecture
io
##oming
##uts
charl
forgotten
respective
expressing
exercises
complications
##fire
##antly
cares
transgender
breathe
drinks
drew
##dit
plain
acceptable
##rounded
pump
##eing
##lad
hardworking
spiritual
spark
shortterm
couples
ads
preferred
priorities
unlock
##edy
accord
generated
estate
excerpt
sarah
fiscal
##uous
##hes
covers
seemingly
podcast
##itious
motivating
anonym
supplement
egg
shaping
##nels
reass
thereby
highway
entit
violin
bbc
varied
victor
elev
aunt
recon
overview
apples
skate
nationwide
mcdon
toxic
warrant
steal
discoveries
classified
overcoming
accounting
neut
plug
extraordinary
##inem
checked
thrown
cheese
heaven
registered
repeatedly
ast
stranger
compensation
elling
interior
##away
responsibly
inventions
hou
pink
##vi
##ressed
popul
breakfast
sadness
misunder
##track
coworkers
shield
seeks
analyt
declared
soviet
dna
imagined
##ashed
endeavor
mathematics
hay
merg
wellrounded
##orith
forem
remar
characteristic
avoided
shelter
ire
litter
##iding
lowest
damaging
installed
constitutional
##arms
examining
utilizing
##appy
theater
radical
downsides
chores
abst
minimal
clarity
tangible
hip
##ystem
landing
algorith
shots
zealand
equivalent
distingu
explored
##eterm
humble
##ez
mona
##umn
graduates
exhausted
gig
ig
conce
para
desires
characterized
harvard
jackson
ios
##bull
traditions
quizz
visible
protocol
odds
attended
ethic
premium
politician
##ette
heights
loans
allegedly
shapes
unclear
patch
ate
hollywood
##pat
possitive
arguing
tonight
dramatically
##ifact
miller
grocery
##ther
concert
telephone
strikes
cable
##kind
##intend
cycling
congressional
cabin
hiv
trustworth
observation
tesla
bact
sake
fee
##ansas
promised
hits
asp
deleg
pays
##bar
##lv
##stone
forum
rooms
spoken
qualifications
smartphone
reportedly
ratio
conspiracy
ambit
highschool
factory
jul
aged
reinforce
composition
poem
lifestyles
indepth
georg
##gg
trave
insur
walmart
##ugged
eggs
persevere
foremost
jam
##fol
##ifice
grandm
tailored
nomine
hoc
wik
##reced
mastering
respondents
ghost
stro
##uty
##irst
spite
treatments
utilized
ambitious
yard
info
disappear
witnessed
##illa
nasas
woke
mysterious
sisters
wine
##not
toys
stocks
##emocratic
possession
prosper
biological
analyst
rice
rab
shocked
porn
##wa
##sthe
kenned
greatness
fallen
contracts
eligible
lubb
##state
recharge
ariz
fouryear
wisely
eric
kings
##icient
uh
complexity
bom
##taining
returning
##bridge
expanded
dirty
gene
tip
##ko
##sters
relatives
password
slate
headed
complaint
holiday
nodded
hone
therefor
badly
pand
##va
weekday
reflected
anxious
settle
jordan
transactions
pent
##prop
discovering
maturity
italian
rocks
wing
root
##prod
pacific
venuss
towns
##rid
attractions
sate
scand
knowledgeable
ordinary
internship
fiction
##har
##iary
partys
bug
enhancing
instantly
luxury
##umes
artifact
physics
earning
becas
developer
##people
viewing
challenged
supervis
grounds
atmospheric
wedding
immensely
pregnancy
reserve
##nology
##mot
accordingly
winnertakeall
carpool
worthwhile
broaden
##anged
roughly
www
##urities
deem
peak
brush
##raints
laughed
ted
boards
##isation
##olves
consume
behavioral
gb
yog
discount
criteria
warned
##asting
##ption
produces
arabia
##lph
ears
museums
hiding
chinas
revolutionary
chaos
##ca
trau
cellular
locked
jews
respir
investigating
##eting
alliance
##aped
ukraine
stored
violation
hiking
##oke
rear
infection
cigare
conqu
suburb
skept
stops
robots
couch
rounded
brilliant
##stit
hamm
usb
poe
quarterback
##athan
tension
recording
handson
engineers
deny
likewise
corruption
scheme
dimin
##grad
recession
apolog
surviv
consulting
nurt
fred
lip
flour
heroes
##uate
ups
elsewhere
unpreced
tables
unprecedented
bones
cp
##oline
steady
instructors
tackling
beast
segment
compat
perpet
steam
reforms
aes
##bid
##apse
disabled
jur
##sen
##ativity
swed
protests
##bling
favorable
adventures
fold
gradually
mentions
retirement
shell
monetary
shortly
orientation
##rolled
hockey
respiratory
rs
##osexual
##conomic
accelerated
refresh
dishon
whisper
dall
tha
avoids
mentor
spell
handed
builds
erosion
freshman
sectors
codes
carrer
enact
convicted
colorado
disputes
clinic
daniel
kennedy
dating
fits
##iw
discrimin
favour
uncertainty
blan
davis
httpww
diagnosis
appointment
dramatic
measured
narrative
pets
##oma
abc
followers
terrorists
farmers
hawai
dn
lung
##run
##ini
plates
writes
undeni
threatened
conventional
ug
##yn
##bsp
wouldve
extrem
marvel
valley
solved
criticized
quizzes
pricing
conver
##ivals
seats
counterpart
assembly
hispanic
applicable
cel
carries
pad
##gov
##inting
automobile
gore
nail
grin
associate
chuck
passes
holidays
bak
thre
coin
concentrated
minimize
picnic
sacrifice
cater
fame
##alle
##ares
ves
##era
frag
##esting
feas
deck
inability
evenings
##elled
flip
representing
eliminating
##amil
starters
##za
waited
renowned
veterans
waters
awk
depr
lawmakers
grey
overseas
##oured
owning
studentdesigned
airpl
damaged
replacing
queen
seattle
gram
dislike
organic
sacrific
hart
si
##ede
behalf
judged
eighth
sid
##income
extract
incorporate
equity
adverse
investigators
publishers
cardio
scrut
boun
kil
roof
##ya
shoulders
cruel
mole
stephen
tobac
fabr
desert
nutritious
upgrade
tobacco
ft
pix
theft
##apes
mold
##swww
harassment
samsung
hood
banning
aqu
cake
##season
disability
scot
##formation
judges
peol
brainstorm
controversy
awkward
##cher
standardized
commander
premier
scholarship
highlighted
agriculture
penalty
hypothesis
arizona
tt
##rick
##inge
viewers
adolescents
conversely
invested
bor
##tering
pok
holy
emphasize
incentives
astronom
gentle
cave
depos
weighed
##rust
meets
mechanic
subsequent
gor
##afe
inh
##igen
throwing
stopping
similarities
intimidating
houston
shook
palestinian
certificate
##front
episodes
categor
##gar
##uding
tracking
expend
poses
brighter
##ictions
messaging
tense
detro
scenes
puzz
incentive
timeline
reson
cooperate
lacking
ard
inclusive
statist
pyram
acquisition
##ita
marks
matches
hoped
awards
ourself
##erto
realworld
divor
sanctions
##ato
##alous
diam
charles
immigrant
firef
freely
oppose
innovations
honey
sna
export
publicly
retake
tickets
wings
##uration
featured
linux
evaluating
lawyers
browser
referring
neutral
##lar
##etch
requests
engines
##rians
advocates
ranging
deficit
miam
forec
poison
handful
socializing
vegan
consisting
advocate
salvador
ub
reall
sav
confusing
signing
immune
jeffersons
##ev
##ano
needing
##umbled
##nell
investigations
judgement
pow
customs
continuously
attached
nintend
##oning
unions
flaws
selfe
hunting
lgbt
stagn
##irm
illnesses
lighting
pulling
prolong
shake
themes
suspended
satell
livable
summar
entity
temple
tends
occasions
exclusive
ipad
bun
timely
propose
claiming
eru
giants
lubbock
##lemm
liver
lew
expense
overly
skilled
hitting
battles
becasue
mun
virtually
blanket
bans
##mans
pled
wellknown
invited
awful
consuming
deadly
mortgage
borders
drove
grat
newly
disrespect
##auth
conferences
##west
ont
comic
dependence
deliber
liberty
scholarships
##made
##sect
indo
punch
##through
gm
##cience
##sels
judgments
loyalty
socalled
chamber
tiss
##rics
##hh
hostile
enterprise
bars
cock
##fits
selfish
breast
occupied
oportunity
##born
##anted
impl
##adelph
synd
abolish
intriguing
mp
sucess
advancing
angles
interface
exercising
verbal
##rog
##organ
channels
kir
sizes
##press
bloom
abolishing
nar
##igm
##ogether
displ
buzz
camping
demonstrating
philadelph
pleasant
nhl
thread
reap
##avery
dishonest
mph
pounds
##eded
criminals
legislature
mystery
frozen
dave
##rum
##roph
bb
##changing
prize
kevin
considerations
fights
checks
varying
throat
animation
sames
footprint
oxy
removing
rushing
dilemm
evolved
wishes
lectures
gross
##liers
assumed
stead
shower
pi
desc
regist
determines
calories
mexican
hazard
pronoun
rally
rog
poet
directors
psychiat
horror
wilson
stir
maps
nowhere
avenue
armor
chemistry
estimates
amid
ignoring
##bra
twin
futures
hybr
negotiations
abstract
stations
##osystem
imperial
tactics
pig
lightning
fundament
gasoline
cats
interventions
suburban
##falls
fighter
alph
arena
classmate
philadelphia
vig
imposed
abund
examined
specially
breach
putin
interpretation
dallas
asc
dispar
entrance
appeals
mechanisms
brian
preserve
professionally
obtaining
##american
##aware
panic
squad
mixt
franchise
##acle
enjoyment
participated
roman
caution
nominee
##lan
waking
vitamin
cance
understandable
scul
roots
founder
wildlife
clases
distances
basics
fighters
accum
secrets
earnings
##draw
castle
poeple
bah
hated
addicted
https
flavor
ireland
uncon
financially
democrat
##ascular
##ati
diffrent
homeland
elite
purchased
uncover
realm
promising
duration
sophistic
detroit
tb
grasp
endang
yelled
trustworthy
pale
opponent
collecting
comprehend
henry
chase
abroad
modeling
echo
georgia
jason
nbsp
rick
explor
stressing
unsu
cyberbull
##irates
optional
mandate
downtown
festival
grandmother
whoever
recru
meditation
defence
samples
suburbs
bone
euro
biased
frequency
taylor
##iscip
##lessness
circuit
entitled
cattle
gps
lav
##his
manual
##iley
##when
newslet
consumed
demanding
photography
lut
households
atlantic
perceptions
portfol
barrier
inquir
##uch
##uation
##rams
stating
schwe
oprah
sheet
invasion
greg
theoretical
homeschooling
rifle
bart
practiced
ranking
laptops
loneliness
cav
junk
dates
ix
tons
beneath
desirable
realtime
airline
sentences
noneth
angle
awarded
shouted
trillion
appropriately
convey
blur
flowers
proportion
addresses
attracted
aids
bullet
organisations
nonetheless
hills
inhab
evolve
semester
hint
##oons
grave
thrive
##isms
eliminates
constructed
joseph
##amiliar
jealous
transformation
visits
intensive
satisfy
desktop
org
cambridge
volunteers
paramount
sighed
ward
worries
wrest
contexts
wre
indef
familys
rolled
suppliers
decreasing
tendency
grandpa
responding
cul
##ivated
contest
elector
suggesting
kicked
sorts
##ean
commod
activists
impressed
cleared
civilians
sections
mitigate
sauce
gravity
exit
comply
charity
destiny
##aneously
httpswww
fosters
##ione
provisions
receiver
dedicate
laz
ns
##inging
undoub
provider
planes
keyboard
legislative
scheduling
licens
##respons
acknowledged
wore
##imm
guest
motivates
unfamiliar
nintendo
nig
herit
landed
bedroom
sweat
mask
prevalence
hurting
striking
manifest
miami
##emen
airlines
hurric
##acked
namely
checklist
recommendation
jet
preced
keen
modify
estimate
##regional
historic
woods
correlation
undoubted
pour
##vid
##asty
operates
guaranteed
disturb
imperative
rome
##rome
genericnames
farre
painful
doubts
neighborhoods
ecosystem
oxygen
##gun
grace
understands
dreamed
jumped
carrier
withdraw
producer
fc
##oll
identities
fifty
obligation
agricultural
sod
##eday
undemocratic
taxpay
titles
adul
##ifer
distributed
mosc
undoubtedly
dot
wow
toss
##aying
proactive
##astics
composed
##abul
monument
racist
champion
##leys
##etics
hamp
biases
journalists
volunt
counseling
commerce
fastest
dominant
stereotypes
cyberbullying
lens
##fers
##star
tam
scare
touched
beij
##iana
pollut
navigating
bs
cheer
heading
delays
covering
administrations
flic
##isp
##arted
origins
heal
relie
hyd
laughing
roller
automobiles
bin
mn
sheri
unreal
qualitative
##ervation
##iner
actress
relies
pressing
pretend
firmly
au
##vascular
##umber
containing
promoted
undermine
indication
illusion
hearts
unhappy
heritage
masters
##woman
##itis
deputy
guides
safegu
ranked
folks
##gent
gov
flaw
reliability
extrater
##erable
traged
evolving
constraints
lowering
billions
firearms
bonus
regulatory
horm
##ok
##gle
tear
betray
##rolling
misle
reminds
restricted
eve
huang
url
tablet
hinder
altogether
sheriff
fived
kat
##icter
stays
gover
simult
laying
anthony
occasionally
province
cf
caut
stricter
##obe
brut
meters
progressive
laboratory
zoos
cardiovascular
ia
##itr
creep
realizing
monthly
nonpro
hyper
thankful
interpre
dj
dual
iq
##eters
intent
relates
producers
mechanics
##aire
##orth
outlets
promises
religions
automated
suspects
samesex
extraterrest
buck
dawn
##ctic
##elve
debates
salaries
supervision
vietnam
oc
##lay
##iac
##ethe
pressured
respectively
competitions
irish
texts
tennis
guardians
adequately
iconic
ray
dozen
##roc
olders
testament
mainstream
audit
##etr
##achu
crush
extraterrestrial
ank
streaming
dirt
pier
##bod
##ships
deadlines
##iffs
coordination
##lined
plume
addict
grows
manufacturer
deemed
rud
##hren
##rais
headqu
collapse
suggestions
ridicul
celebrities
vietnames
hd
jams
tn
zoo
##olis
##irts
resort
offices
reporter
substances
##ien
##uster
volley
antis
rescue
##anges
inclusion
strongest
##held
officially
unfairly
settled
calcul
vietnamese
##bul
grants
overt
bron
##pled
##awa
refuse
mechanical
fert
nc
##aska
##iments
ignor
pokmon
blo
sensor
pap
devoted
copies
tme
##attered
unav
formula
principals
rewarded
empowering
synth
annoying
##ani
outline
prejud
contrad
mini
minnes
##driving
shops
impose
coinc
explos
reddit
legally
strangers
playoffs
ww
guards
##engu
opposing
planetary
convincing
screaming
ct
##iors
##iences
parental
separated
benif
enthusiams
httpwww
apt
commute
scoring
manageable
scholar
##usal
##ogs
ga
pd
santa
revealing
merits
stol
protections
gaps
khan
pound
roster
sink
nons
##ask
radiation
fishing
prosecutors
sour
ya
potter
athlete
ald
sque
va
orbit
##achel
##lesh
reflecting
spreading
allev
incorporating
protesters
sophisticated
baking
hub
stance
walter
performances
waist
buyers
fairness
mah
contained
modified
prince
colonial
gn
gad
uber
##onaut
toll
##reen
beating
antib
defeated
inherent
ancest
##today
eld
##oval
sparked
ij
naz
zip
conserving
elabor
thd
chrome
disagre
tourists
romantic
agrees
shifted
abandoned
cinem
pul
##xp
##oly
##ura
leagues
tracks
enroll
drastic
mining
restore
boom
corp
burst
occasional
recreational
##orient
negativity
weekly
##sylv
replacement
pedestrian
tne
##su
##inction
anti
ought
fancy
##dam
##ayed
##thood
consensus
russias
occupation
suspected
beijing
bib
##no
##min
##zy
uphold
belt
vr
indirect
transmit
inventory
emphasized
dictionary
nan
##leans
leon
blast
expects
pleased
floating
declar
picks
##students
cure
density
processed
emergence
recipes
subtle
##station
adh
spots
retention
logic
launching
pyth
electrical
sidewalks
pennsylv
syndrome
pollutants
practition
inches
##pec
smallest
islands
##gregation
tum
##thew
transregional
minded
surpass
organizing
##commun
cbs
bump
tablets
rings
##aed
arc
brake
obam
variable
reinfor
observations
bakery
yan
##ran
folder
rolling
presenting
geograph
prepares
memorable
bind
cn
ku
##iti
doz
creator
puerto
remarks
laur
wifi
orleans
sphere
##heit
sexually
ti
regulate
moderate
debating
reviewed
landforms
volleyball
##ala
purchases
settlement
bulb
stimul
stunning
resident
disprop
nearest
embar
beacause
horizon
portfolio
holes
mens
quotes
socioe
##commer
sulf
assass
continually
entails
ale
ripp
whites
indigen
fulltime
philipp
nike
##ports
unst
backed
blacks
grader
multitude
agreements
desperate
servers
discusses
assessing
transparency
josh
womans
approaching
wiscons
reminded
michelangelo
undeniable
tony
wiz
daytoday
editing
anime
earthqu
describing
cute
horn
jen
sixth
moscow
jac
##tw
liby
fried
justify
cared
gameplay
hopeful
males
unsure
switching
bry
oldest
salad
survived
lecture
farreaching
socioeconomic
jets
uss
##agan
reluct
hardships
impressoin
epid
glasses
laser
##function
hem
marry
cohes
distress
setup
##archy
capitalism
licenses
artistic
expectation
eyed
##heim
questioned
conservatives
wooden
philosopher
merch
##bles
bold
trek
disproportion
wand
##oded
probe
resent
##uming
awa
quantity
graphics
indigenous
##inger
knee
fahren
##ologically
revenues
globally
dubai
legitimate
yoga
##mond
##usively
strip
reck
scrutiny
prolonged
mixture
cautious
piano
##uced
aging
experimental
ott
##cut
bears
##isan
enforcing
bacteria
tue
somthing
blade
calend
erupt
fahrenheit
rhy
##bus
reviewing
confidently
##burgh
mouse
##chester
shaking
transaction
finances
credibility
unsafe
complaints
hawaii
adulthood
bh
toe
shipping
knight
babies
##flix
oversight
simultaneously
anton
polar
singer
princess
dietary
trials
counterparts
dump
##eman
learns
designer
##setts
tutorials
obamac
controller
execution
screamed
schweitzer
bases
cm
kansas
nether
wasn
pointing
youngest
endor
eliz
humanitarian
conviction
venue
burned
proteins
horizons
aer
dod
anyways
entities
flew
cruz
lind
##tte
forums
impres
commuting
netflix
rebels
bradford
gulf
##oh
rehab
conclution
assumption
##rients
curse
structural
homosexual
automation
occurrence
hybrid
sights
##ige
lev
brew
environmentally
admin
touchdown
feminist
quietly
disruption
quantum
volcanoes
